a 49252
in 14928
the 10960
on 8087
man 7803
is 7538
and 7383
of 6875
with 6179
woman 3976
, 3965
two 3886
are 3723
to 3131
people 3122
at 2948
an 2927
wearing 2623
shirt 2325
young 2280
white 2238
black 2019
his 1969
while 1947
blue 1880
red 1797
men 1770
sitting 1743
girl 1728
boy 1689
dog 1681
standing 1614
playing 1584
group 1553
street 1449
down 1407
walking 1378
- 1348
front 1276
her 1264
holding 1238
one 1096
water 1065
three 1057
by 1056
women 988
up 947
green 927
little 916
for 906
looking 895
child 894
as 880
outside 871
large 843
through 813
brown 795
yellow 785
children 768
person 753
hat 728
from 728
ball 726
their 725
into 711
small 671
next 664
other 660
dressed 643
out 633
some 624
over 615
building 603
riding 584
running 581
s 579
near 571
jacket 566
around 562
another 562
field 536
sidewalk 534
orange 526
crowd 522
beach 520
stands 498
pink 494
sits 493
' 492
jumping 491
behind 489
table 485
snow 478
grass 468
hair 466
background 460
stand 452
bike 449
city 445
air 443
girls 441
player 429
top 425
looks 423
asian 422
wall 418
off 406
dogs 406
four 405
that 404
several 404
older 402
camera 395
dress 390
park 390
talking 382
lady 380
something 380
blond 375
soccer 375
walks 371
along 370
guitar 368
working 365
play 364
boys 364
together 361
food 357
gray 354
smiling 353
has 340
game 340
picture 340
it 333
hand 332
car 331
plays 331
holds 322
old 317
bench 314
road 314
t 313
him 312
glasses 311
pants 311
shorts 304
stage 303
side 303
sit 303
walk 302
carrying 300
couple 299
baby 299
them 290
bicycle 288
face 287
tree 286
" 280
race 279
pool 279
male 279
long 276
taking 275
rock 274
middle 272
each 272
doing 267
dirt 263
head 262
across 261
watching 261
guy 260
boat 259
ed 259
jeans 259
there 259
area 258
dark 258
day 254
back 252
jumps 250
hands 248
ground 246
room 245
female 245
performing 241
baseball 238
who 237
eating 236
being 233
coat 233
striped 232
suit 231
using 229
football 229
band 226
kids 225
horse 225
watch 225
its 224
under 224
many 223
store 222
mouth 221
purple 221
he 220
sign 219
this 216
haired 215
sand 214
runs 212
tennis 212
look 209
players 209
construction 208
sunglasses 208
reading 207
clothing 203
microphone 202
or 201
mountain 200
toy 199
covered 199
basketball 198
ocean 198
during 197
workers 197
watches 194
climbing 193
uniform 192
past 191
work 191
elderly 190
restaurant 189
helmet 188
against 187
be 186
re@@ 186
team 185
train 185
shirts 184
window 183
dancing 183
rides 181
chair 179
they 178
posing 178
about 177
wooden 175
trees 174
having 173
five 173
all 173
outdoor 173
waiting 173
ice 171
line 170
swimming 169
very 169
getting 168
floor 166
bag 166
trying 165
colorful 163
skateboard 163
high 161
busy 160
fence 159
singing 159
jump 158
ing 157
light 155
cart 154
book 151
inside 150
laying 150
hill 150
truck 149
market 149
hats 149
bright 147
y 147
tan 147
ride 146
s@@ 145
kitchen 145
cap 145
others 145
grassy 144
path 144
cellphone 144
big 143
someone 143
making 142
brick 142
night 141
clothes 141
bus 141
motorcycle 140
takes 140
body 140
umbrella 139
e@@ 139
full 138
towards 138
track 138
outfit 138
enjoying 137
colored 135
metal 135
swing 135
river 134
paper 133
ready 133
piece 133
open 132
tank 132
es 131
she 131
shop 128
worker 126
sweater 126
board 126
trick 125
lake 125
painting 124
above 124
run 124
african 123
hard 123
going 122
american 122
adults 122
music 121
stone 121
snowy 120
dance 120
house 120
vest 120
ers 119
surrounded 119
wave 119
shopping 119
onto 119
stick 119
uniforms 118
photo 117
crowded 117
like 117
outdoors 117
phone 116
backpack 115
smiles 115
gear 115
beside 115
set 114
kid 114
pole 114
in@@ 113
subway 112
hockey 112
drinking 112
family 111
flowers 110
bridge 110
toddler 109
fire 108
gathered 108
event 108
arms 108
guys 108
hanging 107
lot 107
police 107
away 106
catch 106
beautiful 105
preparing 105
steps 103
leaning 103
object 103
costume 103
sleeping 103
after 102
bar 102
fishing 102
machine 101
fountain 100
plaid 100
rope 100
short 100
take 99
stairs 99
k@@ 99
adult 99
shirtless 99
graffiti 97
o@@ 97
arm 97
rocks 96
shoes 96
ding 96
er 95
glass 94
sunny 94
selling 94
ly 94
does 93
forest 93
racing 93
chairs 92
pose 92
p 92
parade 92
setting 92
2 91
w@@ 91
tall 91
wood 91
volleyball 90
both 90
corner 90
aged 90
putting 90
frisbee 89
ds 89
throwing 89
view 89
pushing 89
drink 88
between 88
slide 88
have 88
d@@ 88
ladies 88
laughing 87
computer 87
public 87
equipment 86
st@@ 86
instruments 86
flag 86
bikes 85
pictures 85
bed 85
fish 85
couch 85
sun 85
ramp 84
party 84
cowboy 84
plastic 84
woods 83
concrete 83
a@@ 83
poses 83
way 83
playground 83
trail 83
sweatshirt 83
yard 83
which 83
sh@@ 82
beard 82
statue 82
winter 81
ts 81
dock 81
midair 81
number 80
ling 80
reads 80
just 80
al 79
d 79
seated 79
skirt 79
school 79
distance 78
g@@ 78
where 77
pe@@ 77
toward 77
p@@ 77
ting 77
get 77
bags 77
what 77
attire 77
six 77
cooking 76
ti@@ 76
tent 76
left 76
works 76
beer 76
sky 76
vests 75
filled 75
lined 75
cutting 75
rider 75
cross 75
cream 74
pulling 74
buildings 74
di@@ 73
en@@ 73
mother 73
appears 72
station 72
crossing 72
friends 72
skateboarder 72
cliff 72
instrument 71
showing 71
spectators 71
edge 71
mountains 71
few 71
cars 70
jersey 70
bearded 70
show 70
horses 70
court 70
k 69
right 69
scarf 69
nearby 69
art 69
de@@ 69
make 69
ro@@ 69
dresses 69
t@@ 69
performs 69
apron 68
bowling 68
perform 68
concert 68
snowboarder 68
grill 68
net 68
m@@ 68
box 68
arts 68
driving 68
ps 68
i@@ 68
carries 68
time 67
shore 67
fruit 67
leaves 67
an@@ 67
ex@@ 67
lo@@ 66
coffee 66
structure 66
boots 66
parked 66
b@@ 66
students 66
flower 66
cup 66
cigarette 66
various 66
vendor 66
painted 66
smile 65
gentleman 65
goggles 65
vehicle 65
shot 65
surfer 65
younger 65
o 64
door 64
rain 64
flying 64
lit 64
go 64
smoking 64
eyes 64
bottle 64
drums 64
talks 64
be@@ 64
martial 64
king 64
rocky 63
l 63
suits 63
hit 63
bathing 63
kicking 63
home 63
new 63
y@@ 63
flags 63
no 63
lying 63
al@@ 63
newspaper 62
prepares 62
waves 62
indian 62
m 62
safety 62
uses 62
swinging 62
rodeo 62
jackets 62
pre@@ 62
po@@ 62
coming 62
paint 62
g 62
ri@@ 61
practicing 61
bucket 61
gloves 61
different 61
se@@ 61
costumes 61
gather 61
parking 61
conversation 61
cake 61
la@@ 61
hold 60
le@@ 60
scene 60
ladder 60
er@@ 60
listening 60
cleaning 60
roof 60
der 60
bunch 60
bull 60
competition 60
cement 60
f@@ 60
son 59
onlookers 59
skateboarding 59
staring 59
wet 59
blanket 59
items 59
3 59
un@@ 59
railing 58
lawn 58
meal 58
desk 58
bicycles 58
empty 58
bikini 58
balloon 58
li@@ 58
pile 58
audience 58
giving 58
military 57
hot 57
leaps 57
can 57
bu@@ 57
drinks 57
sports 57
si@@ 57
gets 57
bird 56
sliding 56
pointing 56
display 56
gathering 56
vegetables 56
flip 56
tie 56
bowl 56
. 55
gold 55
chasing 55
u@@ 55
biker 55
streets 55
competing 55
before 55
stop 55
ping 55
basket 55
facing 55
wedding 55
feet 55
class 55
silver 54
mask 54
l@@ 54
th@@ 54
i 54
helmets 54
speaking 54
huge 54
platform 54
ted 54
surfing 53
tries 53
bride 53
lights 53
ks 53
teams 53
match 53
classroom 53
ski 53
waits 52
climbs 52
alley 52
purse 52
skier 52
pass 52
ar@@ 52
sings 52
surfboard 52
seen 52
father 52
wait 52
place 52
marathon 52
traditional 52
fighting 52
musicians 51
screen 51
kissing 51
animal 51
counter 51
ins 51
do 51
rail 51
sing 51
country 50
v@@ 50
happy 50
females 50
break 50
ter 50
same 50
stroller 50
skating 50
su@@ 50
hole 49
runner 49
at@@ 49
w 49
site 49
lap 49
sunset 49
throw 49
shoulder 49
hand@@ 49
walkway 49
ded 49
end 49
to@@ 49
writing 49
kneeling 49
c 49
ring 48
violin 48
st 48
waving 48
ve 48
blowing 48
ches 48
business 48
bald 48
scooter 48
well 48
talk 48
le 48
attempting 48
christmas 48
sort 48
course 47
signs 47
led 47
c@@ 47
con@@ 47
overlooking 47
tu@@ 47
outfits 47
tables 47
made 47
life 46
ta@@ 46
ad@@ 46
artist 46
bubbles 46
mirror 46
close 46
urban 46
officer 46
says 46
chinese 46
on@@ 46
cafe 45
fixing 45
les 45
ra@@ 45
el@@ 45
base 45
balloons 45
giant 45
mo@@ 45
brightly 45
leans 45
plate 44
skate 44
alone 44
ons 44
ating 44
brunette 44
leg 44
wheel 44
leather 44
swim 44
e 44
gym 44
teenage 44
foreground 44
ation 44
r@@ 44
faces 44
collar 44
helping 44
umbrellas 44
ated 43
legs 43
h@@ 43
or@@ 43
el 43
asleep 43
n@@ 43
dancers 43
clown 43
meat 43
sticks 43
headphones 43
am@@ 43
enjoy 43
mud 43
n 43
electric 43
van 43
roller 42
stadium 42
falling 42
diving 42
golf 42
makes 42
balls 42
office 42
officers 42
wears 42
among 42
washing 42
passing 42
swings 42
sandals 42
ate 41
skiing 41
snow@@ 41
canoe 41
dirty 41
ar 41
heads 41
church 41
doorway 41
musical 41
photographer 41
hiking 41
friend 41
toys 41
; 41
multicolored 41
ked 41
ke 41
barefoot 41
goal 41
singer 40
accordion 40
traffic 40
video 40
over@@ 40
mar@@ 40
drawing 40
reaching 40
picking 40
males 40
leash 40
we@@ 40
laptop 40
row 40
per@@ 40
throws 40
move 39
digging 39
daughter 39
relaxing 39
cu@@ 39
sts 39
ic 39
performance 39
fla@@ 39
members 39
shallow 39
below 39
square 38
bicyclist 38
atop 38
ched 38
sled 38
cat 38
foot 38
catches 38
car@@ 38
microscope 38
deep 38
hugging 38
tunnel 38
it@@ 38
upside 38
catching 38
gives 38
passes 38
moving 38
shovel 38
here 37
sleeps 37
robe 37
leaping 37
resting 37
garden 37
drum 37
ck 37
tattoo 37
stunt 37
chef 37
lab 37
en 37
shows 37
sweeping 37
prepare 37
ster 37
paved 37
ma@@ 37
kick 37
beige 37
bat 37
co@@ 37
fun 37
cut 37
climb 37
flies 37
lone 37
lots 36
rolling 36
coats 36
conversing 36
individuals 36
splashing 36
cold 36
karate 36
photograph 36
hoodie 36
teeth 36
desert 36
ls 36
hose 36
wear 36
trunks 36
pond 36
sculpture 36
how 35
telescope 35
gu@@ 35
se 35
pier 35
de 35
gun 35
ste@@ 35
et 35
these 35
low 35
held 35
block 35
formal 35
tire 35
eat 35
points 35
round 35
shoe 35
town 35
b 35
ac@@ 35
jogging 35
underneath 35
plants 35
customers 35
wrestling 35
closed 35
project 34
te@@ 34
opposing 34
sp@@ 34
head@@ 34
curly 34
sk@@ 34
gs 34
including 34
shoulders 34
cane 34
mat 34
carnival 34
themselves 34
dances 34
waters 34
hiker 34
without 34
als 34
ru@@ 34
cloth 34
cyclist 34
local 34
vi@@ 34
wooded 33
hammer 33
cre@@ 33
trampoline 33
ves 33
pulled 33
runners 33
tricks 33
crosswalk 33
crying 33
sc@@ 33
ch 33
fight 33
produce 33
cor@@ 33
taken 33
circle 33
as@@ 33
ker 33
makeup 33
matching 33
infant 33
mural 33
racket 33
ders 33
straw 33
dinner 33
hula 33
em@@ 32
stuffed 32
knee 32
rest 32
athlete 32
books 32
covering 32
ws 32
z@@ 32
br@@ 32
gymnast 32
pa@@ 32
sw@@ 32
booth 32
sewing 32
surface 32
hoop 32
attempts 32
pic@@ 32
ba@@ 32
bicyclists 32
nose 32
performer 32
picnic 32
opening 32
driver 32
trash 32
che@@ 32
ous 32
blouse 31
lift 31
lays 31
pedestrians 31
so@@ 31
cow 31
pitcher 31
ning 31
pushes 31
help 31
bar@@ 31
neck 31
tra@@ 31
third 31
back@@ 31
hikers 31
skis 31
me 31
lunch 31
balcony 31
himself 31
per 31
cur@@ 31
oriental 31
chases 31
center 31
sandy 31
boxes 31
goes 31
cheerleaders 31
slope 31
et@@ 31
softball 31
teenagers 31
pro@@ 30
pulls 30
ch@@ 30
bent 30
device 30
seven 30
festival 30
staircase 30
not 30
log 30
ho@@ 30
button 30
indoor 30
deck 30
puts 30
speaks 30
turn 30
ap@@ 30
style 30
kind 30
marching 29
golden 29
ca@@ 29
ble 29
do@@ 29
see 29
ying 29
ce 29
overalls 29
boats 29
swims 29
evening 29
gentlemen 29
heavy 29
grocery 29
shaking 29
wetsuit 29
enjoys 29
4 29
dancer 29
ined 29
par@@ 29
es@@ 29
ans 29
drives 29
fallen 29
fe@@ 29
ging 29
shaving 28
fingers 28
ching 28
sheet 28
fair 28
laundry 28
sh 28
land 28
ler 28
steep 28
hi@@ 28
protective 28
birds 28
robes 28
tracks 28
hangs 28
clear 28
no@@ 28
kicks 28
type 28
waterfall 28
lies 28
ship 28
kayak 28
foreign 28
mat@@ 28
native 28
puddle 28
pouring 28
ledge 28
ge@@ 28
he@@ 28
gate 28
wrapped 28
jean 28
teenager 28
khaki 28
cloudy 28
chi@@ 28
stream 28
pot 28
garb 28
du@@ 28
nice 28
porch 28
ates 27
dd@@ 27
man@@ 27
ment 27
sale 27
age 27
backyard 27
paddling 27
sea 27
palm 27
try 27
blocks 27
checking 27
j@@ 27
reaches 27
bread 27
moves 27
podium 27
arena 27
put 27
poles 27
soldiers 27
kes 27
ol@@ 27
shoveling 27
opposite 27
attached 27
eye 27
ped 27
shooting 27
luggage 27
colors 27
il@@ 27
saxophone 27
airplane 27
pipe 27
piano 27
wine 26
skirts 26
tops 26
pavement 26
wheelchair 26
image 26
poster 26
us 26
kiss 26
ery 26
goalie 26
ter@@ 26
ir@@ 26
inflatable 26
balancing 26
soldier 26
camouflage 26
clean 26
fenced 26
cones 26
tongue 26
string 26
rugby 26
raft 26
ag@@ 26
ful 26
curb 26
denim 26
laugh 26
polo 26
mound 26
5 26
windows 26
part 26
ings 26
use 26
sun@@ 26
bottom 25
fabric 25
ved 25
riders 25
buying 25
ty 25
swimsuit 25
sell 25
ses 25
fresh 25
tools 25
pl@@ 25
frame 25
courtyard 25
happily 25
post 25
professional 25
floating 25
is@@ 25
cyclists 25
step 25
laughs 25
keyboard 25
ish 25
bikers 25
fast 25
tractor 25
skinned 25
seat 25
railroad 25
fall 25
stool 25
eats 25
walls 25
pping 25
motorcycles 25
fans 25
juggling 25
ic@@ 25
go@@ 25
color 25
shade 25
flight 25
musician 25
stri@@ 25
york 25
married 25
student 25
bucking 24
tube 24
bubble 24
groom 24
plant 24
plane 24
santa 24
garbage 24
pajamas 24
sta@@ 24
closeup 24
appear 24
club 24
shown 24
you 24
qu@@ 24
cheering 24
spray 24
nap 24
pit 24
sized 24
cting 24
marketplace 24
acoustic 24
dra@@ 24
touching 24
living 24
suspended 24
pair 24
either 24
goods 24
dri@@ 24
spi@@ 24
backwards 24
hurdle 24
mid 24
socks 24
guard 24
scaffolding 24
jerseys 24
ely 24
floral 24
surf 24
multiple 24
pan@@ 24
inter@@ 24
carriage 24
bandanna 24
climber 23
escalator 23
ai@@ 23
hay 23
raised 23
chain 23
mi@@ 23
advertisement 23
th 23
ally 23
sleeved 23
animals 23
kneels 23
serving 23
sheep 23
caught 23
german 23
paints 23
pri@@ 23
sted 23
japanese 23
dry 23
landscape 23
hood 23
ears 23
id 23
sporting 23
magazine 23
me@@ 23
hooded 23
airport 23
des 23
pen@@ 23
r 23
dining 23
direction 23
sol@@ 23
towel 23
backpacks 23
aring 23
welding 23
plaza 23
underwater 23
stove 23
ear 23
brush 23
cam@@ 22
things 22
grilling 22
checkered 22
summer 22
vehicles 22
action 22
pin@@ 22
athletic 22
amusement 22
sport 22
neon 22
read 22
tre@@ 22
wi@@ 22
polka 22
ne@@ 22
orchestra 22
rests 22
ist 22
bow 22
bmx 22
money 22
mom 22
bun@@ 22
decorated 22
operating 22
! 22
good 22
individual 22
examining 22
brushing 22
gravel 22
boards 22
participating 22
seems 22
stre@@ 22
caucasian 22
pu@@ 22
thrown 22
teacher 22
referee 22
obstacle 22
shaped 22
candy 22
bending 22
atv 21
bri@@ 21
benches 21
passengers 21
scuba 21
min@@ 21
act 21
hitting 21
racer 21
amp 21
compete 21
ered 21
cone 21
ght 21
haircut 21
half 21
bo@@ 21
only 21
heels 21
gr@@ 21
hallway 21
barbecue 21
tourists 21
( 21
attempt 21
turning 21
chest 21
hel@@ 21
om@@ 21
cking 21
sharing 21
fly 21
map 21
ger 21
tub 21
harness 21
print 21
sweat@@ 21
pen 21
opponent 21
jo@@ 21
photographs 21
muddy 21
practice 21
sets 21
feeding 21
studio 21
jungle 21
rowing 21
ropes 21
stra@@ 21
fl@@ 21
wagon 21
wide 21
ity 21
model 21
presentation 21
crouches 21
sticking 21
firefighters 21
peace 21
apple 21
can@@ 21
sters 20
ats 20
skateboards 20
headscarf 20
pull 20
motocross 20
te 20
patio 20
also 20
sed 20
ci@@ 20
chase 20
viewing 20
bs 20
boun@@ 20
bles 20
wire 20
garage 20
ously 20
we 20
she@@ 20
turns 20
guitars 20
snowboard 20
hall 20
im@@ 20
fruits 20
start 20
carpet 20
racetrack 20
tri@@ 20
stru@@ 20
cleans 20
navy 20
dis@@ 20
ops 20
ke@@ 20
tile 20
drummer 20
ering 20
speech 20
jumpsuit 20
sink 20
mustache 20
eight 20
sa@@ 20
) 20
est 20
but 20
motorcyclist 20
ens 20
tool 20
bathroom 20
els 20
groups 20
ters 20
sandwich 20
policeman 20
snowboarding 20
stones 20
bars 20
tw@@ 20
machinery 20
figure 20
eastern 19
possibly 19
observe 19
eling 19
neighborhood 19
indoors 19
clo@@ 19
lane 19
beverage 19
great 19
trumpet 19
tents 19
rough 19
h 19
op@@ 19
smoke 19
lay 19
sting 19
cape 19
av@@ 19
horseback 19
entrance 19
discussion 19
dune 19
ahead 19
bushes 19
stopped 19
crouching 19
bi@@ 19
out@@ 19
herself 19
intersection 19
museum 19
cricket 19
medical 19
tattooed 19
first 19
lar 19
narrow 19
hillside 19
squ@@ 19
baskets 19
beam 19
routine 19
swimmer 19
shoot 19
puck 19
ceiling 19
petting 19
bath 19
coach 19
cted 19
sells 19
gar@@ 19
college 19
ear@@ 19
fancy 19
ies 19
ars 19
vendors 19
leaving 19
tag 19
slides 19
cha@@ 19
boardwalk 19
wing 18
bl@@ 18
ss 18
container 18
clay 18
bur@@ 18
puppy 18
mall 18
hugs 18
sleeve 18
coun@@ 18
funny 18
ornate 18
mixing 18
pieces 18
dishes 18
ets 18
pi@@ 18
flo@@ 18
ical 18
hoops 18
live 18
heart 18
card 18
mostly 18
wheels 18
cr@@ 18
bas@@ 18
ati@@ 18
buckets 18
py 18
fencing 18
protest 18
com@@ 18
ned 18
cardboard 18
army 18
ss@@ 18
bottles 18
sword 18
skates 18
cru@@ 18
gi@@ 18
enterta@@ 18
wa@@ 18
cla@@ 18
youth 18
folding 18
helps 18
vely 18
squatting 18
cra@@ 18
position 18
seats 18
buy 18
tor@@ 18
hospital 18
choir 18
celebrating 18
hang 18
pick 18
sm@@ 18
outstretched 18
birthday 18
met@@ 18
uniformed 18
fi@@ 18
microphones 18
tro@@ 18
blow 18
rubber 18
song 18
ni@@ 18
shepherd 18
ary 18
wh@@ 18
maroon 18
guitarist 18
col@@ 17
bowls 17
ry 17
spinning 17
doors 17
gra@@ 17
ver 17
stroll 17
pat@@ 17
fisherman 17
reflective 17
mohawk 17
ad 17
more 17
scenery 17
belt 17
stack 17
cts 17
derby 17
blows 17
handstand 17
ct 17
rural 17
apartment 17
il 17
nets 17
bank 17
float 17
skaters 17
space 17
flipping 17
rink 17
finish 17
vers 17
ast 17
mobile 17
x 17
cuts 17
gro@@ 17
farm 17
broom 17
library 17
grinding 17
calf 17
balance 17
vegetable 17
smokes 17
flops 17
item 17
bro@@ 17
pine 17
ors 17
spraying 17
doctor 17
pan 17
backs 17
ck@@ 17
ribbon 17
tattoos 17
stretching 17
storefront 17
ages 17
moment 17
excited 17
jockey 17
firetruck 17
ver@@ 17
f 17
boxing 17
lines 17
coloring 17
stripes 17
bear 17
her@@ 17
stares 17
gh@@ 17
tourist 17
got 17
free 17
finger 17
conference 17
ns 17
run@@ 17
furniture 17
tr@@ 17
wife 17
sleeveless 17
hair@@ 17
leading 17
ethnic 17
inspecting 17
dreadlocks 17
member 17
lan@@ 17
cap@@ 16
bling 16
fix 16
raises 16
jewelry 16
listens 16
comfor@@ 16
gre@@ 16
clad 16
moped 16
castle 16
odd 16
barrel 16
banner 16
approaching 16
parents 16
emergency 16
sides 16
tied 16
sand@@ 16
gg@@ 16
tle 16
ff@@ 16
stairway 16
horn 16
pizza 16
plates 16
spread 16
balances 16
war 16
dead 16
dimly 16
ju@@ 16
intently 16
lifting 16
candles 16
television 16
snack 16
theater 16
speed 16
fully 16
chefs 16
ys 16
bass 16
houses 16
sofa 16
ge 16
following 16
win@@ 16
pitch 16
chalk 16
shed 16
pped 16
overhead 16
warm 16
crew 16
nighttime 16
folded 16
fluffy 16
turned 16
carving 16
pers 16
but@@ 16
starting 16
for@@ 16
computers 16
batter 16
ber@@ 16
gas 16
duck 16
objects 16
broken 16
lamp 16
kite 16
partially 16
surrounding 16
keep 16
london 16
gymnasium 16
1 16
name 16
factory 16
naked 16
discussing 16
tur@@ 16
dish 16
hotel 16
reach 16
pigeons 16
crane 16
rainy 16
swe@@ 16
& 16
ines 16
mu@@ 16
balding 16
dle 16
motorbike 16
ave 16
participate 15
bat@@ 15
follows 15
relax 15
push 15
elephant 15
form@@ 15
photos 15
barber 15
ace 15
lounging 15
ak 15
ballerina 15
repair 15
ue 15
thin 15
hol@@ 15
ties 15
beneath 15
swimmers 15
ine 15
gri@@ 15
electronic 15
wn 15
mer@@ 15
ow@@ 15
security 15
taxi 15
unicycle 15
fro@@ 15
advertising 15
air@@ 15
ces 15
trailer 15
wings 15
crosses 15
control 15
cle@@ 15
catcher 15
bare 15
trucks 15
terrain 15
hits 15
fireman 15
end@@ 15
hun@@ 15
star 15
lu@@ 15
ner 15
training 15
cal@@ 15
ming 15
shaved 15
shovels 15
downtown 15
headband 15
carry 15
bla@@ 15
newborn 15
patient 15
forward 15
lin@@ 15
necklace 15
ms 15
seas@@ 15
craft 15
engaged 15
papers 15
flowered 15
liquid 15
redheaded 15
ture 15
come 15
teammate 15
engine 15
amongst 15
fan 15
tee 15
directions 15
observing 15
ard 15
numerous 15
village 15
pe 15
raising 15
called 15
rainbow 15
pottery 15
wrestle 15
smaller 15
shades 15
material 15
present 15
branch 15
protesting 15
book@@ 14
nature 14
billboard 14
shakes 14
slightly 14
passenger 14
fake 14
1@@ 14
world 14
shops 14
races 14
cobblestone 14
off@@ 14
stomach 14
steel 14
sco@@ 14
interacting 14
upon 14
machines 14
shel@@ 14
3@@ 14
cameras 14
ill 14
ail 14
sl@@ 14
photographed 14
caps 14
scarves 14
converse 14
pillow 14
lounge 14
hu@@ 14
receiving 14
plu@@ 14
skiers 14
casual 14
trunk 14
crafts 14
sha@@ 14
airborne 14
performers 14
ining 14
pretty 14
biking 14
dol@@ 14
har@@ 14
wading 14
sprinkler 14
teaching 14
calm 14
athletes 14
aisle 14
silly 14
modern 14
gli@@ 14
firemen 14
ges 14
peering 14
guards 14
share 14
stic 14
dough 14
instru@@ 14
most 14
repairs 14
weaving 14
glove 14
gers 14
admiring 14
homeless 14
ig@@ 14
binoculars 14
ess 14
shining 14
stu@@ 14
my 14
splashes 14
donkey 14
part@@ 14
gift 14
leads 14
cook 14
cool 14
corn 14
hug 14
cards 14
falls 14
tower 14
angel 14
guns 14
char@@ 14
rollerblades 14
story 14
camel 14
loading 14
grand@@ 14
eds 14
whilst 14
our 14
spon@@ 14
straight 14
colle@@ 14
job 14
tires 13
wr@@ 13
ction 13
knit 13
tion 13
paddles 13
bleachers 13
wheelbarrow 13
cl@@ 13
flips 13
entering 13
greyhound 13
saw 13
ants 13
am 13
debris 13
tail 13
sau@@ 13
burgundy 13
teen 13
science 13
autumn 13
dro@@ 13
ill@@ 13
ator 13
let 13
customer 13
drill 13
studying 13
cks 13
bre@@ 13
dusk 13
places 13
official 13
consisting 13
browsing 13
fa@@ 13
order 13
barrier 13
target 13
dy 13
observes 13
was 13
tending 13
care 13
cro@@ 13
comes 13
tropical 13
dr@@ 13
waterway 13
sal@@ 13
messy 13
pur@@ 13
headed 13
til@@ 13
overweight 13
praying 13
ten@@ 13
similar 13
ger@@ 13
pol@@ 13
skater 13
hum@@ 13
spotted 13
examines 13
gestures 13
pit@@ 13
waterfront 13
cans 13
if 13
carts 13
form 13
landing 13
fle@@ 13
sailing 13
ged 13
checks 13
ized 13
laptops 13
chainsaw 13
ssed 13
cked 13
ement 13
cups 13
bath@@ 13
eggs 13
meeting 13
dge 13
keys 13
lacrosse 13
bin 13
semi 13
sneakers 13
groceries 13
paddle 13
tow@@ 13
dad 13
sack 13
bag@@ 13
coaster 13
lers 13
lit@@ 13
ceremony 13
oven 13
filling 13
been 13
thumbs 13
check 13
rod 13
eye@@ 13
farmer 13
ian 13
case 13
telephone 13
tea 13
attention 13
cheer 13
flute 13
rows 13
spoon 13
motor 13
iner 13
pla@@ 13
bystanders 13
leaf 13
lead 13
wal@@ 13
screaming 12
tired 12
paperwork 12
listen 12
ple@@ 12
touches 12
shirted 12
wrap 12
ve@@ 12
ballet 12
cooks 12
teal 12
kayaks 12
spanish 12
bite 12
shoppers 12
handing 12
blo@@ 12
wheelie 12
snowsuit 12
diver 12
pow@@ 12
wires 12
domin@@ 12
complete 12
yoga 12
tv 12
6 12
countryside 12
ite 12
highway 12
jet 12
movie 12
load 12
let@@ 12
cool@@ 12
inspects 12
organ@@ 12
wares 12
rickshaw 12
tape 12
dust 12
wed 12
gymnastics 12
monument 12
vie@@ 12
0@@ 12
hur@@ 12
lifted 12
iron 12
ban@@ 12
newspapers 12
umpire 12
still 12
kers 12
gging 12
pigtails 12
bagpipes 12
stare 12
ven 12
sweeps 12
juice 12
loom 12
pack 12
ently 12
alleyway 12
placing 12
ze 12
attending 12
exhibit 12
so 12
puppies 12
cello 12
heading 12
mes 12
dering 12
pad@@ 12
give 12
scooters 12
seem 12
olympics 12
au@@ 12
covers 12
drive 12
tossing 12
na@@ 12
texas 12
ately 12
blankets 12
serves 12
doll 12
knife 12
suitcase 12
rollerblading 12
tackle 12
newly 12
clapping 12
boulder 12
merchandise 12
visiting 12
beanie 12
bamboo 12
presenting 12
exercise 12
lecture 12
sele@@ 12
sn@@ 12
kno@@ 12
motor@@ 12
shadows 12
ral 12
mes@@ 12
games 12
forehead 12
ics 12
knees 12
sen@@ 12
bricks 12
acking 12
ny 12
cowboys 12
stops 12
applying 12
pillows 12
wrestler 12
onal 12
hap@@ 12
show@@ 12
scra@@ 12
patterned 12
fri@@ 12
tray 12
repairing 12
biting 12
chicken 12
beverages 12
wild 12
acks 12
stat@@ 12
second 11
backdrop 11
maneu@@ 11
re 11
playfully 11
sail@@ 11
rice 11
tights 11
patch 11
ations 11
china 11
location 11
coo@@ 11
played 11
posed 11
creek 11
magazines 11
dire@@ 11
tricycle 11
arch 11
dusty 11
fer@@ 11
parachute 11
printed 11
surgery 11
dives 11
teens 11
auditorium 11
ack 11
burning 11
snowshoes 11
watched 11
motorcyclists 11
chan@@ 11
company 11
recl@@ 11
closely 11
picks 11
arcade 11
opens 11
the@@ 11
involved 11
2012 11
cage 11
placed 11
ponytail 11
celebration 11
salon 11
logs 11
motorized 11
john 11
ph@@ 11
dj 11
drawn 11
speak 11
descent 11
roun@@ 11
bel@@ 11
dles 11
gathers 11
tackling 11
learning 11
cycling 11
touch 11
kayaking 11
poor 11
bow@@ 11
planting 11
wel@@ 11
ced 11
scouts 11
lips 11
da@@ 11
swimsuits 11
department 11
tal@@ 11
shoreline 11
focused 11
crossed 11
meet 11
able 11
strange 11
defen@@ 11
chess 11
dot 11
grou@@ 11
pop@@ 11
tiny 11
practices 11
fashioned 11
mil@@ 11
underwear 11
water@@ 11
ence 11
camping 11
tug 11
mop 11
rapids 11
u 11
pr@@ 11
sses 11
late 11
stoc@@ 11
crouched 11
done 11
lifts 11
ky 11
carefully 11
floats 11
point 11
larger 11
bit 11
adjusting 11
mower 11
yarn 11
sto@@ 11
oning 11
injured 11
ion 11
firefighter 11
chatting 11
trolley 11
venue 11
nail 11
supplies 11
visible 11
rub@@ 11
washer 11
formation 11
soda 11
fashion 11
asians 11
mug 11
fli@@ 11
turquoise 11
recei@@ 11
sunlight 11
medium 11
artwork 11
viol@@ 11
torch 11
hut 11
lighted 11
ways 11
pilot 11
couples 11
trip 11
os 11
foot@@ 11
far 11
don@@ 11
fire@@ 11
khakis 11
passersby 11
banjo 11
suspenders 11
ent@@ 11
rollerskating 11
cheek 11
range 11
rally 11
traveling 11
tan@@ 11
tin@@ 11
thin@@ 11
oned 11
weather 11
record 11
laundromat 11
fre@@ 10
racers 10
pads 10
facility 10
trashcan 10
chopping 10
dar@@ 10
mul@@ 10
thumb 10
canvas 10
ong 10
lem@@ 10
roadside 10
stilts 10
tribal 10
sprayed 10
tain 10
mexican 10
decor@@ 10
gazes 10
cover 10
# 10
war@@ 10
nu@@ 10
link 10
walked 10
process 10
oping 10
contraption 10
spe@@ 10
sion 10
floo@@ 10
sculp@@ 10
chalkboard 10
wer 10
hiding 10
headdress 10
sive 10
pots 10
hike 10
laden 10
involving 10
cop 10
ils 10
collared 10
scaffold 10
dled 10
rooftop 10
america 10
celebrate 10
twir@@ 10
dies 10
embracing 10
leotard 10
portrait 10
maintenance 10
shing 10
cyc@@ 10
experiment 10
products 10
cloud 10
located 10
ele@@ 10
pins 10
laun@@ 10
upward 10
ber 10
gallery 10
surfs 10
driveway 10
kings 10
speaker 10
shes 10
fu@@ 10
frozen 10
asia 10
rafting 10
ward 10
workout 10
nurses 10
quarterback 10
stepping 10
oms 10
march 10
top@@ 10
slo@@ 10
transportation 10
cute 10
monitor 10
sideways 10
thing 10
cheese 10
morning 10
finishing 10
workshop 10
earphones 10
fr@@ 10
peeking 10
tun@@ 10
numbers 10
blood 10
8 10
toddlers 10
fur 10
emer@@ 10
shape 10
cat@@ 10
single 10
lens 10
approaches 10
stor@@ 10
cloth@@ 10
gaze 10
juggles 10
coa@@ 10
ads 10
quickly 10
pin 10
leggings 10
ti 10
decorative 10
fac@@ 10
washes 10
serve 10
displays 10
9@@ 10
um@@ 10
kit@@ 10
handrail 10
furry 10
apart 10
displaying 10
brother 10
stroke 10
branches 10
demonstr@@ 10
excit@@ 10
ant 10
silhouette 10
sure 10
helicopter 10
appar@@ 10
super@@ 10
valley 10
casually 10
tes 10
goat 10
lighting 10
ards 10
tel@@ 10
play@@ 10
dun@@ 10
storm 10
ur@@ 10
activity 10
creating 10
blazer 10
whom 10
hotdog 10
amidst 10
ctor 10
secu@@ 10
oranges 10
bouquet 10
cri@@ 10
belts 10
scre@@ 10
will 10
lobby 10
tch 10
leap 10
incline 10
por@@ 10
cel@@ 10
sur@@ 9
hor@@ 9
hudd@@ 9
wo@@ 9
rac@@ 9
scar@@ 9
types 9
atm 9
elmo 9
service 9
camp 9
menu 9
tips 9
med 9
score 9
unique 9
tournament 9
ham@@ 9
pet 9
green@@ 9
crates 9
love 9
concentr@@ 9
sad 9
butterfly 9
wind 9
cherry 9
jumped 9
jumper 9
power 9
ach 9
gesturing 9
tight 9
sawing 9
chewing 9
section 9
shoe@@ 9
med@@ 9
really 9
writes 9
begins 9
ser 9
sel 9
wheeler 9
mechan@@ 9
ducks 9
spark@@ 9
sorting 9
pale 9
pencil 9
designs 9
scenic 9
sniffing 9
decorations 9
soap 9
rings 9
handle 9
ound 9
bathtub 9
road@@ 9
tter 9
employees 9
ski@@ 9
remo@@ 9
photograph@@ 9
east 9
aid 9
hills 9
boxer 9
dan@@ 9
diner 9
horizon 9
lea@@ 9
cab 9
dive 9
displayed 9
cola 9
acti@@ 9
than 9
assi@@ 9
chopsticks 9
ance 9
pumpkin 9
sledding 9
riot 9
religious 9
egg 9
yo 9
fair@@ 9
bul@@ 9
tered 9
shiny 9
dding 9
aprons 9
shar@@ 9
muzzled 9
stance 9
wig 9
strapped 9
circular 9
belongings 9
ser@@ 9
smoo@@ 9
mon@@ 9
upset 9
wor@@ 9
operates 9
ram@@ 9
treat 9
sprin@@ 9
cer@@ 9
tted 9
eag@@ 9
foliage 9
black@@ 9
bouncing 9
boarding 9
cli@@ 9
sty@@ 9
gradu@@ 9
tiled 9
fin@@ 9
opy 9
hal@@ 9
afternoon 9
classic 9
handed 9
digital 9
fell 9
potato 9
olympic 9
french 9
canadian 9
hear@@ 9
pathway 9
waist 9
interesting 9
strolls 9
spar@@ 9
pain 9
mark 9
stacked 9
draw 9
images 9
raincoat 9
4@@ 9
tripod 9
grabs 9
stoop 9
odles 9
sprink@@ 9
ashes 9
row@@ 9
beret 9
acting 9
jogs 9
drib@@ 9
built 9
unhappy 9
lion 9
tex@@ 9
sparring 9
task 9
gardening 9
pes 9
dragging 9
fishes 9
bor@@ 9
gazing 9
monkey 9
pattern 9
turban 9
almost 9
exten@@ 9
muzzle 9
brushes 9
highchair 9
news 9
containing 9
ty@@ 9
icy 9
que@@ 9
clouds 9
peer 9
des@@ 9
chocolate 9
stic@@ 9
oper@@ 9
ou@@ 9
ha@@ 9
motion 9
farmers 9
featuring 9
cast 9
booths 9
ili@@ 9
kilt 9
hind 9
ol 9
jeep 9
bends 9
thers 9
bicycling 9
sle@@ 9
brass 9
ticket 9
trench 9
ten 9
design 9
tags 9
grabbing 9
rifle 9
reflection 9
stall 9
cleaner 9
cab@@ 9
breakdancing 9
stump 9
recording 9
attractive 9
checkers 9
adjusts 9
sli@@ 9
crowds 9
parasailing 9
dumpster 9
paint@@ 9
fier 9
regi@@ 9
pinata 9
joy 9
painter 9
cellphones 9
heavily 9
protesters 9
mb@@ 9
raining 8
bal@@ 8
tying 8
travel 8
colorfully 8
lon@@ 8
series 8
brea@@ 8
pocket 8
accident 8
much 8
babies 8
european 8
photographers 8
loo@@ 8
had 8
shadow 8
ols 8
buil@@ 8
gown 8
midst 8
spot 8
darkened 8
nic@@ 8
skills 8
fil@@ 8
say 8
buried 8
navigates 8
rou@@ 8
canoes 8
spotlight 8
trains 8
skies 8
lowing 8
kn@@ 8
package 8
lively 8
itive 8
followed 8
strolling 8
break@@ 8
bra@@ 8
columns 8
europe 8
wheeled 8
cti@@ 8
cigar 8
walmart 8
flannel 8
spins 8
spring 8
bridesmaids 8
hawaiian 8
napping 8
dow@@ 8
punch 8
casino 8
establishment 8
notebook 8
finger@@ 8
congreg@@ 8
bedroom 8
crayons 8
packed 8
ends 8
figures 8
co 8
ca 8
cs 8
peac@@ 8
int 8
ind 8
variety 8
cit@@ 8
suit@@ 8
bra 8
india 8
acrobatic 8
sof@@ 8
zes 8
somewhere 8
ess@@ 8
tackled 8
draws 8
chis@@ 8
arch@@ 8
obser@@ 8
hispanic 8
histor@@ 8
izing 8
filming 8
ple 8
kaya@@ 8
muscular 8
din@@ 8
labeled 8
product 8
tuxe@@ 8
directing 8
stuff 8
crashing 8
hammock 8
foam 8
up@@ 8
free@@ 8
illing 8
banners 8
speci@@ 8
amount 8
ase 8
ffs 8
sym@@ 8
conta@@ 8
grand 8
rug 8
uts 8
doesn 8
fol@@ 8
5@@ 8
2@@ 8
commercial 8
vo@@ 8
win 8
halloween 8
ically 8
times 8
gesture 8
communic@@ 8
employee 8
shy 8
grab 8
hardwood 8
state 8
aqua 8
league 8
spir@@ 8
underground 8
barefooted 8
fun@@ 8
vac@@ 8
artists 8
fountains 8
kisses 8
ki@@ 8
bly 8
ents 8
even 8
conver@@ 8
foods 8
harmonica 8
sprays 8
shaggy 8
ise 8
iling 8
hydrant 8
judges 8
fields 8
lanterns 8
loaded 8
medi@@ 8
human 8
forested 8
daytime 8
batman 8
warehouse 8
0 8
bartender 8
every@@ 8
jack@@ 8
waiter 8
murky 8
11 8
parent 8
tour 8
stretches 8
mix@@ 8
coca 8
pay 8
companion 8
cul@@ 8
af@@ 8
vending 8
ingly 8
musta@@ 8
unusual 8
mixer 8
deer 8
destination 8
cluttered 8
marble 8
synchronized 8
explor@@ 8
graffit@@ 8
draped 8
sea@@ 8
ka@@ 8
ving 8
create 8
ja@@ 8
hit@@ 8
antly 8
candle 8
oes 8
downhill 8
homemade 8
must@@ 8
packing 8
jockeys 8
res 8
str@@ 8
completed 8
mic 8
mix 8
skinny 8
staff 8
monopoly 8
purses 8
aquarium 8
serv@@ 8
kee@@ 8
redhead 8
plain 8
thou@@ 8
ior 8
down@@ 8
deci@@ 8
bundle 8
positi@@ 8
ent 8
mess 8
victory 8
signing 8
stringed 8
splashed 8
industrial 8
too 8
peers 8
beads 8
toothbrush 8
protect 8
arr@@ 8
transit 8
ppy 8
stuck 8
looked 8
when 8
hou@@ 8
tic 8
projector 8
conductor 8
cases 8
sailboat 8
lay@@ 8
teammates 8
cheerleading 8
retrie@@ 8
clowns 8
hau@@ 8
nails 8
ments 8
surgical 8
fat 8
v 8
pony 8
speeding 8
cing 8
laboratory 8
ran@@ 8
ession 8
enthusia@@ 8
canal 8
fore@@ 8
squeezing 8
notes 8
tal 8
camels 8
masks 8
scrubs 8
easel 8
pours 8
shelf 8
angle 8
ones 8
dly 8
abandoned 8
vintage 8
hammering 8
cries 8
because 8
campfire 8
carrier 8
toil@@ 8
waterskiing 8
street@@ 8
gen@@ 8
compet@@ 7
pper 7
hoe 7
drying 7
aving 7
cigarettes 7
sil@@ 7
arrow 7
cathedral 7
rs 7
speeds 7
wash 7
blu@@ 7
bush 7
irs 7
pirate 7
inging 7
fog 7
treadmill 7
starring 7
support 7
call 7
dotted 7
roll 7
meadow 7
sunbathing 7
mascot 7
silhouetted 7
typing 7
shawl 7
of@@ 7
buffet 7
skyline 7
supermarket 7
confu@@ 7
gged 7
seating 7
legged 7
collie 7
dyed 7
dinosaur 7
social 7
poodle 7
nee@@ 7
adorned 7
hotdogs 7
pum@@ 7
defender 7
shower 7
barely 7
sleeves 7
hoo@@ 7
eled 7
multi@@ 7
advertisements 7
ital@@ 7
temple 7
open@@ 7
celebr@@ 7
tarp 7
ang@@ 7
squats 7
tro 7
harbor 7
rollerskates 7
bend 7
await 7
accompanied 7
sad@@ 7
ordering 7
sit@@ 7
ition 7
lush 7
barbecu@@ 7
mountainous 7
bananas 7
shi@@ 7
pack@@ 7
videota@@ 7
mers 7
strings 7
roller@@ 7
dec@@ 7
hore 7
chun@@ 7
profession@@ 7
watermelons 7
stry 7
puppet 7
logo 7
flock 7
thick 7
crosscountry 7
parachu@@ 7
ths 7
beating 7
trophy 7
some@@ 7
reception 7
sor@@ 7
battle 7
zone 7
smo@@ 7
exiting 7
marked 7
marker 7
skydiving 7
tails 7
slacks 7
ef 7
year 7
aw@@ 7
british 7
striking 7
apples 7
begin 7
cannon 7
husband 7
monk 7
foggy 7
contro@@ 7
elementary 7
ician 7
feather 7
wrestlers 7
gla@@ 7
ators 7
mounted 7
nine 7
ff 7
slic@@ 7
barrels 7
travels 7
7 7
ash 7
elder 7
gor@@ 7
ste 7
deli@@ 7
cave 7
past@@ 7
tubes 7
stores 7
quet 7
vering 7
guide 7
fedora 7
rugs 7
exercising 7
rest@@ 7
shine 7
rolls 7
cotton 7
gh 7
snowboards 7
picket 7
fuzzy 7
newlywed 7
visor 7
dre@@ 7
sin@@ 7
pie 7
snork@@ 7
squir@@ 7
ash@@ 7
broad 7
? 7
medieval 7
contest 7
monitors 7
presents 7
crops 7
ddle 7
purchase 7
oc@@ 7
arri@@ 7
mini 7
eng@@ 7
10 7
vacuuming 7
sidelines 7
character 7
nude 7
fork 7
fireworks 7
fort 7
bounds 7
daily 7
die 7
ites 7
shift 7
necklaces 7
may 7
ker@@ 7
designed 7
tablecloth 7
maybe 7
pointed 7
main 7
blurred 7
were 7
ultimate 7
crow@@ 7
woodland 7
greyhounds 7
patrons 7
mcdonald 7
measuring 7
conducting 7
lands 7
fellow 7
examine 7
fill 7
jenga 7
fying 7
colli@@ 7
are@@ 7
cker 7
pad 7
crawls 7
dolls 7
pou@@ 7
oil 7
pigeon 7
tow 7
doctors 7
backseat 7
find 7
tracksuit 7
exhib@@ 7
ddles 7
leopard 7
desks 7
stripe 7
armo@@ 7
vacuum 7
cameraman 7
framed 7
fet@@ 7
releas@@ 7
prepared 7
ab@@ 7
side@@ 7
plan@@ 7
named 7
fetch 7
snacks 7
chil@@ 7
railings 7
sho@@ 7
la 7
shoo@@ 7
chased 7
electr@@ 7
fron@@ 7
xylophone 7
demonstration 7
sac@@ 7
ggling 7
sca@@ 7
beat 7
dryer 7
vibrant 7
ese 7
je@@ 7
topless 7
vaul@@ 7
rise 7
jack 7
confetti 7
prints 7
punching 7
tress 7
dal@@ 7
mouths 7
amid 7
ales 7
laid 7
though 7
pops 7
radio 7
earth 7
frying 7
licking 7
nun 7
land@@ 7
6@@ 7
blower 7
pyramid 7
complex 7
peaks 7
characters 7
casting 7
mas@@ 7
styli@@ 7
environment 7
level 7
entertain 7
beers 7
trans@@ 7
pro 7
refle@@ 7
seafood 7
gal@@ 7
pans 7
written 7
workman 7
quiet 7
berry 7
pop 7
turkey 7
tiger 7
bows 7
intervie@@ 7
dum@@ 7
illuminated 7
separate 7
disc 7
lining 7
activities 7
grinds 7
flu@@ 7
att@@ 7
shu@@ 7
rustic 7
policemen 7
scientist 7
resort 7
return 7
weight 7
low@@ 7
fiel@@ 7
icker 7
rails 7
ascen@@ 7
gui@@ 7
sold 7
9 7
ctions 7
shiel@@ 7
completing 7
surfers 7
holi@@ 7
bum@@ 7
gry 7
tutu 7
ce@@ 7
aps 7
cheerleader 7
usa 7
chin 7
mowing 7
sculptures 7
8@@ 7
cover@@ 7
divers 7
tured 7
attenti@@ 7
deli 7
rafts 7
ara@@ 7
warming 7
ingredients 7
tack@@ 7
bongo 7
discuss 7
facial 7
glo@@ 7
mitt 7
own 7
wilderness 7
trotting 7
upwards 7
sooners 6
strike 6
relay 6
ob@@ 6
curi@@ 6
fit 6
clothed 6
ro 6
ath 6
amu@@ 6
rusty 6
post@@ 6
uni@@ 6
professor 6
boogie 6
athers 6
refer@@ 6
boarder 6
rolled 6
bodysuit 6
canyon 6
dots 6
elaborate 6
blind@@ 6
superman 6
crown 6
ader 6
citizens 6
grasping 6
devices 6
glacier 6
work@@ 6
bulldozer 6
badge 6
onary 6
raking 6
aboard 6
ond 6
zoo 6
jewish 6
axe 6
graph@@ 6
pee@@ 6
expression 6
maj@@ 6
teddy 6
lanes 6
gger 6
carou@@ 6
scrat@@ 6
hunched 6
clap 6
poun@@ 6
favorite 6
slopes 6
saris 6
submer@@ 6
dressing 6
wineglasses 6
cable 6
nurse 6
ght@@ 6
vil 6
pitching 6
riverbank 6
band@@ 6
information 6
plank 6
licks 6
snowball 6
fts 6
lipstick 6
adven@@ 6
day@@ 6
self 6
wraps 6
beams 6
eman 6
spo@@ 6
sundress 6
elevated 6
shorter 6
knitting 6
harvesting 6
relaxes 6
mature 6
actors 6
rack 6
infla@@ 6
ley 6
popcorn 6
spatula 6
length 6
scent 6
system 6
x@@ 6
stars 6
scooping 6
socializing 6
gues 6
tly 6
skateboarders 6
less 6
stati@@ 6
dark@@ 6
indi@@ 6
wet@@ 6
spots 6
inning 6
award 6
blocking 6
crest 6
ounds 6
mouse 6
damaged 6
mini@@ 6
ther 6
creates 6
ul@@ 6
del@@ 6
ily 6
bunny 6
evil 6
fen@@ 6
scoo@@ 6
cocon@@ 6
asking 6
festi@@ 6
capped 6
test 6
fo@@ 6
woven 6
muslim 6
flames 6
eks 6
cal 6
noses 6
scaling 6
conte@@ 6
checked 6
expanse 6
flowery 6
quad 6
stair 6
spre@@ 6
progress 6
rubs 6
somebody 6
cer 6
propped 6
javelin 6
ceremonial 6
spla@@ 6
appe@@ 6
cats 6
strollers 6
pet@@ 6
ners 6
pushed 6
arti@@ 6
barri@@ 6
atu@@ 6
ffy 6
alco@@ 6
hon@@ 6
mittens 6
pub 6
sty 6
clu@@ 6
lie 6
ravine 6
gloved 6
probably 6
missing 6
boxers 6
badminton 6
climbers 6
clarin@@ 6
grills 6
used 6
ight 6
pillar 6
moo@@ 6
within 6
cart@@ 6
skull 6
yel@@ 6
lou@@ 6
ner@@ 6
recor@@ 6
inclu@@ 6
arrangement 6
fill@@ 6
university 6
ills 6
special 6
acked 6
completely 6
stride 6
occu@@ 6
mountaintop 6
connected 6
crate 6
nes@@ 6
operated 6
key 6
vis@@ 6
waterskier 6
awning 6
pom@@ 6
bottoms 6
goatee 6
camp@@ 6
nightclub 6
congregate 6
whe@@ 6
swan 6
watering 6
warm@@ 6
briefcase 6
features 6
walkers 6
hook 6
floors 6
girl@@ 6
assisting 6
dos 6
coast 6
ban 6
pets 6
lovely 6
sunshine 6
pid@@ 6
seattle 6
belly 6
renaissance 6
wri@@ 6
competit@@ 6
ribbons 6
bob 6
checkout 6
olive 6
soup 6
sample 6
prou@@ 6
nap@@ 6
whis@@ 6
shake 6
exper@@ 6
afri@@ 6
squad 6
person@@ 6
nearly 6
pelling 6
stretched 6
those 6
main@@ 6
seagulls 6
ornam@@ 6
sno@@ 6
shingles 6
aiming 6
fashi@@ 6
surf@@ 6
ep@@ 6
personnel 6
husky 6
heavyset 6
zing 6
oun@@ 6
wind@@ 6
portable 6
bowtie 6
mule 6
tau@@ 6
armed 6
texting 6
fresh@@ 6
hour 6
dragon 6
deserted 6
handheld 6
bb@@ 6
razor 6
scantily 6
cardigan 6
ka 6
scattered 6
fish@@ 6
raise 6
dropping 6
gap 6
butcher 6
wheelchairs 6
shouting 6
unloading 6
bib 6
paci@@ 6
piles 6
brooms 6
dessert 6
legos 6
pipes 6
talent 6
lime 6
pil@@ 6
kiosk 6
crafting 6
subur@@ 6
bones 6
cou@@ 6
terrier 6
cas@@ 6
hop@@ 6
stunts 6
and@@ 6
crash@@ 6
barriers 6
microscopes 6
ancient 6
convenience 6
handbag 6
bill@@ 6
fixes 6
finished 6
drum@@ 6
weapon 6
rush 6
seesa@@ 6
volunte@@ 6
four@@ 6
circus 6
hip@@ 6
sear@@ 6
sleep 6
assembled 6
oming 6
gin@@ 6
kicked 6
parallel 6
scissors 6
tor 6
magni@@ 6
gowns 6
toe 6
dered 6
excitedly 6
liquor 6
vic@@ 6
trave@@ 6
bikinis 6
der@@ 6
sla@@ 6
hearts 6
bands 6
scho@@ 6
prote@@ 6
constructed 6
na 6
focus 6
adv@@ 6
port 6
wrap@@ 6
occur@@ 6
alli@@ 6
wit@@ 6
gol@@ 6
feathered 6
craw@@ 6
tomat@@ 6
convention 6
mates 6
any 6
senior 6
merry 6
contem@@ 6
weigh@@ 6
inspe@@ 6
cash 6
pul@@ 6
enthusi@@ 6
ok 6
cin@@ 6
swords 6
cally 6
rimmed 6
follow 6
miniature 6
flat 6
fam@@ 6
ize 6
double 6
efs 6
anvil 6
whistle 6
dump 6
instal@@ 6
overlook 6
political 6
cept 6
waterside 6
lower 6
wash@@ 6
sprinklers 6
jumpsuits 6
tends 6
upright 6
soars 6
bloc@@ 6
rag 6
farm@@ 6
fer 6
nati@@ 6
mis@@ 6
dges 6
crash 6
trimm@@ 6
ghts 6
clutching 6
words 6
bronco 6
desc@@ 6
bby 6
surge@@ 6
tomatoes 6
pedal 6
identical 6
miami 6
column 6
val 6
stirring 6
gling 6
hero 5
assor@@ 5
want 5
chers 5
descen@@ 5
fic 5
high@@ 5
passi@@ 5
watercraft 5
memorial 5
marches 5
appro@@ 5
lasso 5
sub@@ 5
soa@@ 5
stret@@ 5
tar@@ 5
pedestri@@ 5
snowboar@@ 5
ggles 5
craft@@ 5
rain@@ 5
punk 5
stle 5
oo@@ 5
fra@@ 5
assistant 5
vision 5
vertical 5
heal@@ 5
baton 5
cav@@ 5
kne@@ 5
alls 5
carri@@ 5
mail@@ 5
cockpit 5
obama 5
banan@@ 5
asphal@@ 5
wood@@ 5
whole 5
cau@@ 5
ore@@ 5
bil@@ 5
accompan@@ 5
un 5
elev@@ 5
chat 5
amish 5
ket@@ 5
zip 5
challenge 5
robot 5
rap@@ 5
techn@@ 5
ssi@@ 5
ares 5
jap@@ 5
terminal 5
pel@@ 5
accep@@ 5
consi@@ 5
cy 5
mannequin 5
va 5
pied 5
lee@@ 5
ina 5
gle 5
rit@@ 5
lable 5
law 5
waitress 5
zer 5
navig@@ 5
wild@@ 5
ative 5
da 5
mmed 5
antique 5
embr@@ 5
welcome 5
gum 5
upper 5
cargo 5
angels 5
pauses 5
massi@@ 5
ities 5
em 5
ey 5
ep 5
slee@@ 5
message 5
xt 5
bon@@ 5
ack@@ 5
hill@@ 5
cheer@@ 5
ams 5
your 5
torches 5
cookies 5
mou@@ 5
exam@@ 5
mcdonalds 5
ox@@ 5
won@@ 5
beg@@ 5
oppon@@ 5
tongs 5
cowgirl 5
opped 5
conditions 5
them@@ 5
mag@@ 5
atta@@ 5
under@@ 5
prom@@ 5
gy 5
fisher@@ 5
chant 5
gent 5
poin@@ 5
dom@@ 5
ici@@ 5
ires 5
affe@@ 5
pai@@ 5
trou@@ 5
bee 5
tambour@@ 5
businessman 5
unfinished 5
tend 5
respon@@ 5
cent 5
americ@@ 5
iz@@ 5
utility 5
ghtly 5
lean@@ 5
commun@@ 5
uk@@ 5
wakeboard 5
ware 5
plies 5
balan@@ 5
physi@@ 5
dor 5
watermelon 5
bay 5
00 5
im 5
ia 5
ie 5
kie 5
ren@@ 5
yelling 5
ored 5
ford 5
zard 5
jewel@@ 5
store@@ 5
bol 5
arrive 5
designer 5
maid 5
ster@@ 5
wers 5
winding 5
tat@@ 5
caricature 5
constru@@ 5
contin@@ 5
mon 5
inf@@ 5
island 5
rail@@ 5
wiping 5
film 5
expressions 5
emp@@ 5
scout 5
yscape 5
manu@@ 5
bin@@ 5
sat@@ 5
proje@@ 5
zy 5
windbreaker 5
ki 5
champagne 5
adm@@ 5
cakes 5
ama@@ 5
itch 5
snap 5
wards 5
fran@@ 5
lun@@ 5
unidentifi@@ 5
brac@@ 5
stock 5
bing 5
ature 5
hom@@ 5
lingerie 5
rer 5
saxoph@@ 5
mate 5
consul@@ 5
sour@@ 5
passer@@ 5
xi@@ 5
tumbling 5
bus@@ 5
odle 5
anti@@ 5
ady 5
ade 5
intere@@ 5
wake@@ 5
pride 5
disney 5
dor@@ 5
thor@@ 5
sage 5
boss 5
young@@ 5
cir@@ 5
nike 5
swim@@ 5
breaks 5
ick 5
thro@@ 5
gham 5
varying 5
dex 5
surroun@@ 5
den@@ 5
bull@@ 5
zebra 5
gy@@ 5
sem@@ 5
commu@@ 5
weapons 5
chu@@ 5
vocalist 5
tag@@ 5
ot 5
rock@@ 5
span@@ 5
igh 5
sons 5
tage 5
skim@@ 5
proc@@ 5
attendant 5
stro 5
ied 5
assembl@@ 5
pass@@ 5
latin 5
bronze 5
cher@@ 5
padd@@ 5
pon@@ 5
workmen 5
parachutes 5
phants 5
blur@@ 5
sou@@ 5
kimonos 5
denti@@ 5
lanter@@ 5
frog 5
ices 5
lam@@ 5
ipod 5
unknown 5
vegetation 5
combat 5
tures 5
chips 5
our@@ 5
sim@@ 5
propane 4
ater 4
writ@@ 4
bud@@ 4
foo@@ 4
rin@@ 4
speedo 4
enf@@ 4
boston 4
ird 4
sniff@@ 4
athered 4
ements 4
union 4
stum@@ 4
spect@@ 4
chem@@ 4
hen@@ 4
sy 4
attraction 4
oper 4
structures 4
ball@@ 4
note 4
phin 4
sumo 4
substance 4
locomoti@@ 4
frustr@@ 4
dau@@ 4
fluore@@ 4
balcon@@ 4
tru@@ 4
via 4
yst@@ 4
pant 4
iller 4
taxis 4
moun@@ 4
pun@@ 4
fighter 4
tri 4
engage 4
jogg@@ 4
slip 4
hawk 4
blan@@ 4
collection 4
graphi@@ 4
erial 4
repor@@ 4
patrio@@ 4
fati@@ 4
gaphone 4
tou@@ 4
ghters 4
tickets 4
aks 4
explo@@ 4
word 4
las 4
bru@@ 4
dings 4
baller@@ 4
forces 4
toast 4
nor@@ 4
mode@@ 4
tons 4
descend 4
yamaha 4
stair@@ 4
adorable 4
termin@@ 4
plat@@ 4
trombone 4
far@@ 4
ums 4
vegas 4
kitchenaid 4
tran@@ 4
pong 4
sam@@ 4
drop 4
ek 4
electron@@ 4
fir@@ 4
chinatown 4
volkswagen 4
atten@@ 4
grin@@ 4
nant 4
parasol 4
ft 4
fe 4
muzz@@ 4
cupcake 4
starbucks 4
dunk 4
mickey 4
20@@ 4
prim@@ 4
bear@@ 4
vol@@ 4
impressi@@ 4
mor@@ 4
mounta@@ 4
kickboxing 4
ey@@ 4
crayon 4
cupcakes 4
pain@@ 4
sy@@ 4
seniors 4
cause 4
wait@@ 4
eting 4
ure 4
compe@@ 4
ken 4
sages 4
washington 4
trem@@ 4
eria 4
key@@ 4
force 4
ney 4
sign@@ 4
piercing 4
cher 4
twister 4
geish@@ 4
lear@@ 4
doo 4
natu@@ 4
ctors 4
equip@@ 4
tempor@@ 4
ung 4
cho@@ 4
kin 4
mea@@ 4
mess@@ 4
proxim@@ 4
technique 4
bor 4
stro@@ 4
sky@@ 4
rist@@ 4
enjo@@ 4
lass@@ 4
mac 4
q 4
vel@@ 4
monster 4
ine@@ 4
participat@@ 4
star@@ 4
suppor@@ 4
basket@@ 4
drainage 4
fitness 4
artifici@@ 4
buggy 4
fal@@ 4
file 4
org@@ 4
guitari@@ 4
ility 4
questi@@ 4
kil@@ 4
pati@@ 4
lap@@ 4
boul@@ 4
fine 4
ini@@ 4
gay 4
gan 4
prepar@@ 4
one@@ 4
possession 4
direct@@ 4
dation 4
lama 4
wei@@ 4
ssure 4
ld 4
lo 4
dal 4
dan 4
south 4
vest@@ 4
latin@@ 4
ble@@ 4
kilts 4
mascara 4
grimac@@ 4
twi@@ 4
statues 4
villa@@ 4
qui@@ 4
essi@@ 4
spea@@ 4
oing 4
fix@@ 4
lation 4
dunes 4
gymna@@ 4
deere 4
ma 4
ther@@ 4
arrang@@ 4
clip@@ 4
prof@@ 4
ton 4
western 4
cob@@ 4
clean@@ 4
stal@@ 4
unicef 4
dem@@ 4
gam@@ 4
za@@ 4
gie 4
tim 4
fic@@ 4
brow@@ 4
som@@ 4
ands 4
technolog@@ 4
caf@@ 4
ray@@ 4
separ@@ 4
puzzle 4
seagul@@ 4
oklahoma 4
bir@@ 4
jazz 4
ken@@ 4
ct@@ 4
you@@ 4
lets 4
bracelet 4
princ@@ 4
om 4
op 4
kick@@ 4
roses 4
participants 4
icking 4
gig@@ 4
known 4
nur@@ 4
pirates 4
icked 4
oni@@ 4
iti@@ 4
triangle 4
ick@@ 4
solo 4
archite@@ 4
thered 4
intense 4
z 4
once 4
rollerbla@@ 4
figu@@ 4
automobile 4
brochure 4
cram@@ 4
ath@@ 4
gras@@ 4
gyp@@ 4
steaks 4
amen 4
bloo@@ 4
liber@@ 4
itting 4
ori@@ 4
bble 4
rem@@ 4
ei@@ 3
lego 3
comp@@ 3
respe@@ 3
capes 3
cles 3
sombrero 3
sque 3
dir@@ 3
blonds 3
piercings 3
ven@@ 3
crou@@ 3
tis@@ 3
crocodile 3
ollie 3
scope 3
trum@@ 3
sk 3
ples 3
siz@@ 3
san 3
pages 3
tas@@ 3
gout 3
ouse 3
fel@@ 3
former 3
lead@@ 3
tting 3
simultan@@ 3
tuba 3
bran@@ 3
tt 3
laces 3
titude 3
ness 3
aves 3
trol@@ 3
sely 3
ligh@@ 3
anim@@ 3
climb@@ 3
mexic@@ 3
jun@@ 3
handicap@@ 3
cages 3
relax@@ 3
sar@@ 3
: 3
um 3
lar@@ 3
dig@@ 3
camer@@ 3
ues 3
index 3
lei 3
spor@@ 3
walk@@ 3
sent@@ 3
paintball 3
allow 3
mets 3
ssing 3
kni@@ 3
pause 3
ohio 3
mom@@ 3
boo@@ 3
pies 3
transport 3
vern@@ 3
cades 3
alumin@@ 3
quel@@ 3
phones 3
panda 3
tant 3
walkie 3
turbans 3
scream@@ 3
timate 3
ambulance 3
zen 3
crocs 3
astronau@@ 3
ly@@ 3
ange 3
portraits 3
du 3
ile 3
mariachi 3
ninj@@ 3
leot@@ 3
aver@@ 3
trouble 3
barbie 3
explosion 3
flot@@ 3
lakers 3
acrobat@@ 3
ron@@ 3
rine 3
colum@@ 3
loun@@ 3
sel@@ 3
river@@ 3
pal@@ 3
care@@ 3
ctive 3
prun@@ 3
eu@@ 3
salu@@ 3
fortune 3
cad@@ 3
tutus 3
haw@@ 3
audi@@ 3
incl@@ 3
ass 3
mob@@ 3
voc@@ 3
num@@ 3
hamburgers 3
menus 3
son@@ 3
cac@@ 3
mirro@@ 3
kart 3
sai@@ 3
peop@@ 3
appli@@ 3
vietnam@@ 3
bout 3
toyota 3
ees 3
coney 3
aga@@ 3
wrest@@ 3
gi 3
suite 3
kitty 3
note@@ 3
bean@@ 3
wii 3
bit@@ 3
vement 3
asi@@ 3
cen@@ 3
quar@@ 3
comm@@ 3
aqu@@ 3
route 3
expre@@ 3
border 3
pump@@ 3
sari 3
ots 3
arm@@ 3
bucks 3
horizon@@ 3
vide 3
page 3
appl@@ 3
flambo@@ 3
discu@@ 3
talkie 3
nintendo 3
ore 3
berlin 3
just@@ 3
ises 3
aids 3
ton@@ 3
mine 3
scienti@@ 3
don 3
hambur@@ 3
golf@@ 3
windo@@ 3
08 3
pli@@ 3
ym@@ 3
pra@@ 3
pier@@ 3
new@@ 3
zombies 3
les@@ 3
fee@@ 3
loa@@ 3
eth@@ 3
lows 3
kara@@ 3
progra@@ 3
ak@@ 3
boa 3
zo@@ 3
suspen@@ 3
corn@@ 3
effort 3
ponchos 3
mas 3
conc@@ 3
dojo 3
pharm@@ 3
paras@@ 3
12 3
wns 3
wonder 3
tout 3
mart 3
bmw 3
sig@@ 3
pony@@ 3
fur@@ 3
beagle 3
polit@@ 3
itation 3
burger 3
dress@@ 3
oxford 3
ach@@ 3
spot@@ 3
cade 3
tricycles 3
services 3
shin@@ 3
sils 3
fou@@ 3
onloo@@ 3
inspect@@ 3
mid@@ 3
rela@@ 3
oed 3
spectacu@@ 3
ga@@ 3
batt@@ 3
ritu@@ 3
backp@@ 3
bom@@ 3
formations 3
tresses 3
ov@@ 3
body@@ 3
das 3
retriever 3
hollister 3
parka 3
iff@@ 3
visit@@ 3
vent 3
dou@@ 3
ado@@ 3
inten@@ 3
sauna 3
powerpoint 3
plast@@ 3
adolescent 3
mur@@ 3
condu@@ 3
scri@@ 3
mb 3
mo 3
poker 3
ttery 3
poncho 3
rai 3
coin 3
yant 3
thoscope 3
diver@@ 3
cani@@ 3
wat@@ 3
eld 3
50 3
potat@@ 3
vacuum@@ 3
mannequins 3
trio 3
ne 3
fit@@ 3
cop@@ 3
fan@@ 3
mem@@ 3
san@@ 3
mass@@ 3
costum@@ 3
shampo@@ 3
door@@ 3
impro@@ 3
chev@@ 3
latex 3
restaur@@ 3
24 3
ea@@ 3
tum@@ 3
spiderman 3
eless 3
cy@@ 3
chor@@ 3
porter 3
stant 3
patri@@ 3
ale 3
bac@@ 3
ican 3
sus 3
moti@@ 3
featu@@ 3
unusu@@ 3
cand@@ 3
ier 3
pt 3
neck@@ 3
inse@@ 3
zombie 3
long@@ 3
rectangu@@ 3
mock 3
para@@ 3
beauti@@ 3
ckets 3
sexy 3
patron 3
urin@@ 3
attend 3
califor@@ 3
dgers 3
ctu@@ 3
lev@@ 3
cock@@ 3
joe 3
mel@@ 3
focu@@ 3
rines 2
sum@@ 2
shaw@@ 2
jet@@ 2
herd 2
projection 2
stern 2
melons 2
teet@@ 2
maje@@ 2
pris 2
traverse 2
obscu@@ 2
rib@@ 2
prin@@ 2
plaque 2
stuff@@ 2
arra@@ 2
gun@@ 2
oles 2
locks 2
ind@@ 2
internet 2
circu@@ 2
alled 2
han@@ 2
aut@@ 2
repair@@ 2
jets 2
agit@@ 2
buff@@ 2
situation 2
furi@@ 2
turn@@ 2
pig@@ 2
joh@@ 2
wine@@ 2
ai 2
ing@@ 2
` 2
invol@@ 2
vie 2
vin 2
orn@@ 2
notre 2
inju@@ 2
pane 2
was@@ 2
ouvre 2
act@@ 2
laborat@@ 2
plan 2
roof@@ 2
vention 2
trav@@ 2
admire 2
mly 2
ama 2
bes@@ 2
envelo@@ 2
jam@@ 2
chur@@ 2
cil 2
mau@@ 2
check@@ 2
ave@@ 2
joy@@ 2
oh 2
pour 2
slim 2
ette 2
jum@@ 2
boutique 2
los 2
percussion 2
paper@@ 2
even@@ 2
documents 2
zz@@ 2
possi@@ 2
vise 2
tric@@ 2
ire 2
labra@@ 2
kets 2
angeles 2
bott@@ 2
ite@@ 2
esa@@ 2
boar@@ 2
bystand@@ 2
chet 2
cano@@ 2
cares@@ 2
lac 2
avi@@ 2
civ@@ 2
inged 2
jou@@ 2
fau@@ 2
d' 2
offici@@ 2
plom@@ 2
born 2
pays 2
scaffol@@ 2
dia@@ 2
aff@@ 2
manipu@@ 2
spa 2
pret@@ 2
non 2
exerc@@ 2
mati@@ 2
conditi@@ 2
mani@@ 2
nov@@ 2
noc@@ 2
central 2
football@@ 2
cartons 2
sales 2
lig@@ 2
escal@@ 2
syn@@ 2
swor@@ 2
shoul@@ 2
fs 2
circuit 2
oti@@ 2
shop@@ 2
oli@@ 2
ordin@@ 2
chop@@ 2
bicyc@@ 2
ques 2
centr@@ 2
dame 2
iers 2
cross@@ 2
stem 2
acro@@ 2
incen@@ 2
neigh@@ 2
shou@@ 2
sous 2
fare 2
moder@@ 2
gion 2
regar@@ 2
puzz@@ 2
illy 2
eg@@ 2
ota 2
scu@@ 2
journal 2
ha 2
erie 2
nel 2
inform@@ 2
slal@@ 2
terr@@ 2
met 2
mer 2
jama 2
brochu@@ 2
brief@@ 2
men@@ 2
iser 2
bone 2
patter@@ 2
vin@@ 2
cellu@@ 2
stom@@ 2
wag@@ 2
ston 2
bas 2
neu@@ 2
une 2
portant 2
fris@@ 2
edly 2
suc@@ 2
classi@@ 2
ope 2
vari@@ 2
iment 2
hy@@ 2
ari@@ 2
conne@@ 2
vous 2
mal 2
deser@@ 2
carav@@ 2
bandan@@ 2
plume 2
ench 2
cray@@ 2
gul@@ 2
veral 2
aci@@ 2
class@@ 2
olympi@@ 2
flow@@ 2
conven@@ 2
hard@@ 2
ences 2
particu@@ 2
den 2
ensemble 2
whi@@ 2
cket 2
ass@@ 2
cture 2
grill@@ 2
orig@@ 2
nin@@ 2
diti@@ 2
cue 2
lars 2
gon@@ 2
pel 2
% 2
lent 2
skul@@ 2
isc@@ 2
complet@@ 2
cers 2
ption 2
cho 2
track@@ 2
hydr@@ 2
ret 2
applau@@ 2
que 2
occasion 2
zi@@ 2
cot@@ 2
con 2
rack@@ 2
oce@@ 2
bridesm@@ 2
rav@@ 2
port@@ 2
grass@@ 2
lau@@ 2
respecti@@ 2
rele@@ 2
direct 2
asses 2
ena 2
ene 2
cle 2
gon 2
gos 2
embrac@@ 2
approa@@ 2
velo@@ 2
spin@@ 2
cost@@ 2
bes 2
tions 2
entre@@ 2
bli@@ 2
va@@ 2
iler 2
compl@@ 2
tin 2
ron 2
sten@@ 2
xy@@ 2
melon 2
diffic@@ 2
ong@@ 2
aper 2
eas@@ 2
aud@@ 2
ances 2
ial 2
ang 2
bou@@ 2
tea@@ 2
ann@@ 2
ign@@ 2
dic@@ 2
dribble 2
participant 2
shor@@ 2
presen@@ 2
rose 2
xing 2
ign 2
twe@@ 2
lace 2
identi@@ 2
gir@@ 2
oth@@ 2
distri@@ 2
indu@@ 2
citiz@@ 2
instructions 2
challen@@ 2
news@@ 2
passer 2
fini@@ 2
illumin@@ 2
amar@@ 2
achers 2
acces@@ 2
aling 2
stun@@ 2
quat@@ 2
wil@@ 2
comb@@ 2
ried 2
harve@@ 2
lons 2
tabl@@ 2
enti@@ 2
gant 2
desig@@ 2
gall@@ 2
engag@@ 2
kimon@@ 2
bonnet 2
mountain@@ 2
faux 2
dent 2
nies 2
sues 2
all@@ 2
violet 2
partment 2
mir@@ 2
sweat 2
uti@@ 2
album 2
chine 1
video@@ 1
shirt@@ 1
cuisine 1
hab@@ 1
sph@@ 1
enth@@ 1
loc@@ 1
borne 1
mc@@ 1
dwalk 1
sures 1
argent@@ 1
ful@@ 1
performan@@ 1
fro 1
toboggan 1
adolescents 1
inc@@ 1
olo 1
sole@@ 1
riers 1
ades 1
net@@ 1
scrip@@ 1
vel 1
perpl@@ 1
suring 1
bik@@ 1
mak@@ 1
gratu@@ 1
sa 1
mering 1
tory 1
transpor@@ 1
silhouettes 1
mignon 1
numer@@ 1
tomb@@ 1
pho@@ 1
ever@@ 1
sac 1
combin@@ 1
lins 1
tom@@ 1
vette 1
ima@@ 1
sav@@ 1
chap@@ 1
anti 1
may@@ 1
venir 1
ening 1
parti@@ 1
panor@@ 1
yh@@ 1
ress 1
plumes 1
secon@@ 1
power@@ 1
bene@@ 1
pod 1
papa 1
barbel@@ 1
ghter 1
asse 1
table@@ 1
ac 1
au 1
ising 1
inst@@ 1
ctures 1
sax@@ 1
barb@@ 1
pics 1
entran@@ 1
furn@@ 1
bermuda 1
peu@@ 1
tooth@@ 1
milit@@ 1
volle@@ 1
pap@@ 1
shir@@ 1
snea@@ 1
mic@@ 1
lared 1
dder 1
pist@@ 1
passag@@ 1
eurs 1
pelo@@ 1
scape 1
shep@@ 1
ength 1
bo 1
labrador 1
quarter@@ 1
quette 1
trib@@ 1
chas@@ 1
wheel@@ 1
pian@@ 1
synchron@@ 1
quo@@ 1
casserole 1
dinosau@@ 1
crev@@ 1
fai@@ 1
produ@@ 1
custom@@ 1
gency 1
impre@@ 1
rapped 1
caban@@ 1
musc@@ 1
court@@ 1
cup@@ 1
ety 1
volley 1
plac@@ 1
mousta@@ 1
elets 1
bon 1
swee@@ 1
wel 1
seu@@ 1
establi@@ 1
chic@@ 1
cow@@ 1
contrac@@ 1
jer@@ 1
brand@@ 1
arro@@ 1
ino 1
casque 1
ttes 1
concer@@ 1
univer@@ 1
ert 1
carton 1
again@@ 1
dam@@ 1
race@@ 1
traver@@ 1
stration 1
parall@@ 1
dump@@ 1
di 1
yer 1
bies 1
bras 1
parasa@@ 1
ain 1
gne 1
tritus 1
nis 1
demand@@ 1
client 1
vapor@@ 1
observ@@ 1
horse@@ 1
loin 1
ole 1
ant@@ 1
butter@@ 1
gue 1
ain@@ 1
smil@@ 1
xylo@@ 1
attemp@@ 1
esp@@ 1
ot@@ 1
trac@@ 1
ferm@@ 1
artisan 1
ee 1
marine 1
xe 1
bers 1
fore 1
mains 1
sible 1
maine 1
grat@@ 1
leur 1
ffe 1
visi@@ 1
polic@@ 1
illo@@ 1
document 1
loy@@ 1
verse 1
od@@ 1
spr@@ 1
mit@@ 1
tram@@ 1
vert 1
squee@@ 1
oire 1
isi@@ 1
ry@@ 1
automob@@ 1
ye 1
scriptions 1
rai@@ 1
binocu@@ 1
accordi@@ 1
wai@@ 1
invisible 1
exer@@ 1
ffe@@ 1
vres 1
liqui@@ 1
spra@@ 1
afro 1
$ 1
scen@@ 1
stes 1
infir@@ 1
forest@@ 1
bed@@ 1
anniver@@ 1
label@@ 1
za 1
resque 1
fest@@ 1
vir@@ 1
squat@@ 1
uniform@@ 1
auto 1
ille 1
chall@@ 1
veget@@ 1
soon@@ 1
bel 1
si 1
autom@@ 1
filets 1
tux@@ 1
busin@@ 1
mout@@ 1
bulldo@@ 1
tens 1
entr@@ 1
ket 1
situ@@ 1
comman@@ 1
oeu@@ 1
immense 1
obstacles 1
rece@@ 1
chalk@@ 1
with@@ 1
christ@@ 1
mal@@ 1
courts 1
attr@@ 1
heav@@ 1
chemise 1
donal@@ 1
ement@@ 1
skate@@ 1
supporters 1
sul@@ 1
pay@@ 1
differ@@ 1
pizz@@ 1
enou@@ 1
appr@@ 1
ricksha@@ 1
hors 1
fum@@ 1
align@@ 1
protection 1
tread@@ 1
clar@@ 1
sup@@ 1
ix 1
lux@@ 1
ir 1
dess@@ 1
bub@@ 1
athle@@ 1
fighters 1
polos 1
appla@@ 1
cham@@ 1
mill 1
din 1
dio 1
dit 1
kite@@ 1
adverti@@ 1
yar@@ 1
harmon@@ 1
photo@@ 1
aband@@ 1
pizzeria 1
ory 1
aven@@ 1
cuit 1
trace 1
chal@@ 1
entation 1
val@@ 1
tus 1
adolesc@@ 1
craf@@ 1
sombrer@@ 1
hawai@@ 1
poss@@ 1
olog@@ 1
7@@ 1
fant@@ 1
chats 1
pav@@ 1
mun@@ 1
expl@@ 1
business@@ 1
canon 1
ital 1
deo 1
par 1
chute 1
public@@ 1
orient 1
crav@@ 1
bbing 1
hea@@ 1
spectat@@ 1
spee@@ 1
esse 1
fume 1
attle 1
dy@@ 1
aspir@@ 1
fabri@@ 1
gar 1
id@@ 1
oran@@ 1
appu@@ 1
brit@@ 1
garden@@ 1
cauc@@ 1
nam@@ 1
ssion 1
masculine 1
outf@@ 1
tron@@ 1
dread@@ 1
che 1
chu 1
alie 1
grimaces 1
esses 1
eur 1
phi@@ 1
esc@@ 1
ree 1
iting 1
nage 1
congre@@ 1
after@@ 1
stoo@@ 1
ington 1
gent@@ 1
rn@@ 1
flan@@ 1
mol@@ 1
sham@@ 1
sembl@@ 1
bum 1
dure 1
wheelbar@@ 1
ait 1
arriv@@ 1
cep@@ 1
sang 1
bonnets 1
nie 1
attractions 1
tos 1
tele@@ 1
monit@@ 1
flor@@ 1
ben@@ 1
kaki 1
laugh@@ 1
journal@@ 1
adul@@ 1
shing@@ 1
rol@@ 1
ica 1
iles 1
red@@ 1
lage 1
grav@@ 1
tis 1
nu 1
peloton 1
passage 1
py@@ 1
reli@@ 1
shment 1
rayed 1
pre 1
ane 1
rent 1
sne@@ 1
gag@@ 1
mod@@ 1
shooter 1
musi@@ 1
assist@@ 1
perform@@ 1
agricul@@ 1
pos 1
coupe 1
allu@@ 1
nd 1
grave@@ 1
aises 1
lif@@ 1
eric@@ 1
social@@ 1
ou 1
gars 1
stil@@ 1
itude 1
practi@@ 1
by@@ 1
q@@ 1
euro@@ 1
util@@ 1
naval 1
bikin@@ 1
charge 1
bron@@ 1
aisi@@ 1
footed 1
rette 1
capit@@ 1
inent 1
gile 1
alle@@ 1
vit@@ 1
icycles 1
arc 1
mono@@ 1
kar@@ 1
tam@@ 1
rollers 1
dus 1
sque@@ 1
vide@@ 1
tem@@ 1
zzy 1
dale 1
hosp@@ 1
unes 1
ague 1
lette 1
rect@@ 1
sil 1
distribu@@ 1
xim@@ 1
articles 1
tral 1
inspec@@ 1
yway 1
outi@@ 1
idi@@ 1
= 1
centre 1
urg@@ 1
ballons 1
auto@@ 1
fon@@ 1
dev@@ 1
motif 1
stand@@ 1
mach@@ 1
leap@@ 1
tiss@@ 1
ez 1
yc@@ 1
drome 1
